#version: 0.2
č Ċ
a n
i s
s e
an t
t ant
s s
Ġ t
U se
is tant
ss istant
A ssistant
Use r
Ġ w
h e
Ġ c
o u
i n
a t
Ġ y
Ġy ou
Ġ i
l l
o d
Ġ a
Ġ an
l e
Ġ d
r e
Ġt he
Ġ e
Ġan d
m e
Ġ is
Ġ 2
Ġ s
h at
in g
o r
Ġw i
Ġw hat
Ġc an
Ġ m
Ġ p
e s
Ġt i
e ll
Ġe x
Ġ I
Ġ he
Ġ f
i c
t h
o od
Ġti me
Ġ n
Ġi t
l a
Ġ h
r o
Ġ g
c k
e r
c t
l p
Ġhe lp
Ġ b
n d
Ġ Y
Ġc od
i g
m p
h t
Ġ se
le a
ĠY es
ig ht
o w
v e
Ġwi ll
Ġn ight
Ġd o
Ġse nd
p la
Ġex pla
Ġexpla in
o n
Ġ S
ou t
a l
e p
Ġwi th
Ġf or
ic e
a ct
Ġyou r
Ġ re
Ġ H
Ġg ood
Ġ 1
Ġi mp
Ġd e
k e
l y
Ġt o
he ck
Ġc heck
Ġp ro
Ġw ell
Ġ P
Ġs t
a s
l o
Ġ G
Ġcod ing
b out
Ġ me
Ġa bout
ĠG ood
Ġ 3
c h
r n
le ep
d y
Ġ T
Ġ lea
at h
Ġlea rn
b le
v ice
ell o
Ġh i
Ġh ow
lea se
ĠH ello
Ġde vice
ĠP lease
lo ck
a y
Ġc lock
Ġthe re
Ġm ath
Ġex act
Ġb e
Ġcod e
ĠS leep
Ġimp ro
Ġw he
Ġm a
Ġpro ble
Ġwhe n
Ġproble m
r a
Ġ =
Ġ l
g e
Ġe as
Ġeas i
e d
t er
u dy
Ġa m
Ġ in
in e
t e
t i
Ġ o
Ġt h
Ġw e
mp le
Ġeasi er
a m
i ve
Ġw h
on e
Ġlearn ing
i mple
r act
Ġ C
Ġ M
Ġt ell
Ġs imple
c e
g u
o l
o me
Ġ at
at a
Ġd ata
ch ine
ract ice
a ll
e l
o ll
o re
u l
Ġ k
or k
al th
Ġst udy
Ġimpro v
Ġma ke
i ly
n ow
y th
Ġ u
an ce
Ġt ra
he r
in k
Ġd i
Ġd ay
Ġ2 0
Ġ2 5
Ġp ractice
la r
Ġimpro ve
Ġl i
oll e
Ġk now
i t
o t
o ol
s t
Ġw ork
at her
Ġa re
or tant
ve l
Ġre gu
Ġimp ortant
ch ool
Ġo f
Ġwe ather
am ily
Ġimprov es
olle ge
Ġregu lar
a k
m all
Ġ one
Ġc hat
Ġ2 2
Ġ2 4
Ġ2 7
Ġ2 8
Ġs mall
Ġm y
on s
ĠS t
Ġ3 0
Ġwh y
a r
c ome
e ct
p p
t ter
u s
Ġ 4
Ġ 5
Ġi f
Ġan yth
re d
Ġ2 1
Ġ2 3
Ġ2 6
Ġ2 9
Ġs h
Ġp l
Ġti p
Ġtime s
Ġg ive
Ġ1 9
Ġ3 1
Ġbe tter
ter n
Ġth ink
Ġu se
Ġanyth ing
i d
j ect
q u
r out
Ġ 7
Ġ B
Ġ qu
Ġ rout
Ġc h
re ak
Ġe at
Ġs o
or t
Ġg o
Ġb y
Ġpro ject
Ġst ep
f e
l d
p ic
r y
Ġ ke
od el
Ġm odel
Ġhe alth
Ġn e
Ġ1 0
Ġst ay
Ġma chine
te n
ti ons
ĠM a
ul t
Ġof ten
ĠSt udy
Ġproject s
Ġke ep
a dy
e n
f ic
f ore
k ly
s se
v is
v er
Ġ 6
Ġ 9
Ġ out
an ge
is h
at tern
Ġa ct
Ġm ore
Ġp attern
es t
ic kly
al k
Ġre st
Ġre ady
ĠH e
Ġto pic
Ġbe come
Ġbe fore
Ġin t
Ġtra in
Ġli ke
Ġqu ickly
Ġch ange
ĠMa chine
vis e
Ġact ive
Ġpattern s
F amily
a i
b u
f fic
n t
n ti
u m
u pp
v id
Ġ 8
Ġ A
Ġ Family
Ġt alk
Ġc ollege
ou ld
in ish
od ing
re at
Ġe sse
Ġs chool
Ġs upp
Ġp a
Ġp red
Ġf e
Ġf amily
Ġf inish
ic tions
Ġb u
Ġb al
nd ance
ĠS chool
al s
Ġre vise
Ġ1 2
Ġde bu
ĠT he
ĠT ra
Ġeasi ly
te ndance
ĠC ollege
ĠC oding
Ġat tendance
Ġtra vel
Ġdi ffic
Ġdi vid
Ġday s
Ġli fe
Ġregular ly
Ġsh ould
Ġpl an
Ġuse s
ĠB reak
Ġrout e
Ġgo ing
Ġstep s
ĠHe alth
Ġbecome s
Ġint o
nti als
Ġesse ntials
Ġsupp ort
Ġpred ictions
Ġbal ance
Ġdebu g
ĠTra vel
Ġdiffic ult
Ġdivid ed
a p
a ke
b ot
e t
k s
p e
w or
Ġ N
ss wor
Ġh a
Ġg reat
Ġ1 8
ĠT hat
Ġwh o
Ġchat bot
Ġpa sswor
Ġfe el
Ġpasswor d
b y
c c
f or
h one
n g
n ing
t ing
u re
Ġ R
Ġ on
an s
Ġc o
Ġc ap
at er
Ġa v
Ġs a
Ġs ome
Ġm o
Ġn ot
Ġdo ing
ĠH ow
ĠT ake
it al
ar t
Ġpl us
ver y
Ġcap ital
a re
a me
a ge
b o
d e
g am
i te
i ons
l ow
l come
o id
o gam
p ing
s w
u r
Ġ D
Ġ E
Ġ O
Ġ W
Ġ Use
Ġ or
Ġ lo
an gu
se t
Ġt as
Ġt est
Ġw ant
Ġc ol
Ġa s
Ġa cc
Ġan sw
Ġe m
Ġe very
Ġs leep
Ġs pe
Ġs low
Ġp hone
Ġf r
th ing
Ġn ame
Ġh o
Ġh um
er s
Ġb reak
ĠY ou
ve lo
ve nt
Ġ1 4
Ġ1 5
Ġde velo
ĠT ry
Ġl angu
ed ed
Ġin vent
Ġth an
Ġth ing
Ġwe lcome
ĠM ogam
yth on
it ed
Ġsh ort
Ġne eded
ai l
Ġbu i
Ġbu t
ĠN o
Ġha pp
ĠR est
Ġav oid
Ġsome thing
Ġlangu age
ĠMogam bo
1 0
1 1
1 5
3 0
a d
a u
c y
c re
c us
c au
e e
f ul
f it
f tern
g r
g ra
h ar
i e
i es
i on
m m
n er
o o
o ss
o on
o cus
p u
p er
p en
p are
r s
r ink
r ans
s ult
t s
u ra
u ter
v ies
w ork
y ping
Ġ L
Ġ j
Ġ ow
an d
Ġt ry
Ġt rans
Ġt yping
Ġw as
Ġw ay
Ġw ater
Ġc on
Ġc al
Ġc red
ou s
ou nt
at e
at ul
at ions
Ġa i
Ġa r
Ġa ftern
Ġd rink
re ath
re pare
Ġthe m
Ġe ve
me r
Ġs cre
or ning
Ġm us
Ġm orning
Ġp la
Ġhe re
Ġhe ad
Ġf ro
Ġf ocus
Ġn ow
Ġh u
ro ng
Ġb ul
Ġb reath
nd er
mp uter
Ġse e
ow s
on gr
ĠS um
ĠS ee
al i
Ġre al
Ġre set
Ġre sult
Ġ1 1
Ġto o
Ġpro gra
ĠP ractice
ĠP ython
ĠP repare
Ġ3 2
ĠT h
Ġma de
Ġl ight
Ġl ater
Ġl ate
ti on
Ġth is
ĠC ongr
ĠM y
ĠM ali
Ġimprov ing
Ġu p
ĠSt art
Ġuse rs
Ġqu es
Ġrout ine
Ġch oo
Ġso on
Ġgo al
Ġhealth y
Ġne w
Ġ10 0
en s
ver fit
Ġtrain ing
ĠA I
Ġha ve
Ġfeel ing
by e
for m
for mer
Ġco mputer
Ġsa fe
Ġmo vies
ĠD o
Ġlo st
Ġtas ks
Ġcol or
Ġacc ount
Ġansw ers
Ġem ail
Ġspe ak
Ġname d
Ġho pe
Ġhum an
Ġdevelo per
Ġinvent ed
Ġthan ks
Ġthing s
Ġbui ld
cau se
ura cy
Ġow ner
Ġtrans former
Ġcal m
Ġcred ited
atul ations
Ġaftern oon
Ġeve ning
Ġmus ic
Ġfro m
Ġbul b
ĠSum it
Ġresult s
ĠCongr atulations
Ġchoo se
verfit ting
J u
a c
a v
a in
a ve
a mple
a ily
b s
b er
b ai
b by
c i
c es
c all
c ure
c ited
d i
d s
d is
d ows
e w
e le
e vise
e cause
e ave
f t
f as
g g
g h
g ot
g ry
g ain
h i
h y
h am
h us
i r
i v
i z
i le
i al
i ble
i ed
i ous
k y
k ing
k ay
l f
l t
l u
l in
l ine
l ish
m at
m as
m ber
n ot
n ect
n form
n iz
o ke
o tions
o pu
o nder
o ky
o mas
p hone
p tion
p ir
p lin
r u
r se
r ight
r ks
r ied
s at
s pir
t u
t es
t her
t ting
t work
u n
u ch
u it
u red
u tes
v at
v ous
w ay
x and
y e
Ġ ll
Ġ le
Ġ la
Ġ ro
Ġ very
Ġ Ju
an k
an y
is ci
se lf
ss ions
Ġt ou
Ġt od
Ġt hat
Ġt ake
Ġt ele
Ġw or
Ġw all
Ġw rong
Ġw onder
Ġc ou
Ġc le
Ġc or
Ġc la
Ġc lea
Ġc all
Ġc ar
Ġc are
in dows
in utes
at s
at ter
Ġy es
ll o
Ġa ssistant
Ġa ch
Ġa pp
Ġa gain
Ġa way
Ġan gry
le d
le xand
Ġd ur
Ġd aily
Ġd isci
re ct
re sse
Ġe gg
me nt
me mber
Ġs or
Ġs ig
Ġs us
or ite
Ġwi de
Ġcan not
Ġm ood
Ġm uch
Ġm any
Ġm inutes
Ġp ract
Ġp ers
Ġp ython
Ġp oss
Ġp opu
Ġti red
ell ig
Ġex am
Ġex ample
Ġex cited
ĠI nform
Ġhe y
Ġhe ar
Ġhe llo
Ġf ine
Ġf oll
Ġf ai
Ġf ail
Ġf av
Ġf un
ic s
ic al
Ġn er
Ġn ice
Ġit s
la ck
la ble
Ġh ome
Ġh ur
Ġg ot
Ġg et
Ġg iv
ct or
ct ure
ct ured
Ġhelp s
Ġhelp ing
Ġb as
Ġb lock
Ġb est
Ġb reat
Ġb lu
Ġb right
Ġb atter
Ġb lack
nd s
ht ra
Ġse cure
Ġse tting
Ġse ssions
ve ment
Ġdo ctor
on ly
ĠS et
ĠS ure
Ġfor got
Ġfor mat
Ġyour self
Ġre call
Ġre tu
Ġre member
ĠH i
Ġgood bye
Ġde ep
ke niz
Ġto keniz
ĠP ar
Ġst art
Ġst rong
Ġst ru
Ġst resse
as ure
as htra
ĠG ra
Ġme et
Ġme ans
Ġme asure
ĠGood bye
Ġ3 6
ch ite
ĠT ell
ĠT alk
ĠT oky
Ġlearn s
Ġbe d
Ġbe cause
Ġma har
Ġma rks
Ġl ow
Ġl one
Ġl ink
Ġin tern
Ġin form
Ġin di
Ġin spir
ti fic
ti vat
Ġo pen
Ġo verfitting
Ġo kay
Ġo ption
Ġo ther
Ġo ats
Ġwe bs
mple te
Ġwh ile
ĠC olle
ĠC har
ĠM um
Ġdata set
el hi
Ġk hus
Ġstudy ing
Ġu nder
Ġdi d
Ġ20 0
Ġ20 1
Ġ20 2
Ġ20 3
Ġ20 4
Ġ20 5
Ġ20 6
Ġ20 7
Ġ20 8
Ġ20 9
Ġ25 0
Ġ25 1
Ġ25 2
Ġ25 3
Ġ25 4
Ġ25 5
Ġ25 6
Ġ25 7
Ġ25 8
Ġ25 9
st and
Ġchat ting
Ġ22 0
Ġ22 1
Ġ22 2
Ġ22 3
Ġ22 4
Ġ22 5
Ġ22 6
Ġ22 7
Ġ22 8
Ġ22 9
Ġ24 0
Ġ24 1
Ġ24 2
Ġ24 3
Ġ24 4
Ġ24 5
Ġ24 6
Ġ24 7
Ġ24 8
Ġ24 9
Ġ27 0
Ġ27 1
Ġ27 2
Ġ27 3
Ġ27 4
Ġ27 5
Ġ27 6
Ġ27 7
Ġ27 8
Ġ27 9
Ġ28 0
Ġ28 1
Ġ28 2
Ġ28 3
Ġ28 4
Ġ28 5
Ġ28 6
Ġ28 7
Ġ28 8
Ġ28 9
ĠSt ay
Ġ30 0
Ġ30 1
Ġ30 2
Ġ30 3
Ġ30 4
Ġ30 5
Ġ30 6
Ġ30 7
Ġ30 8
Ġ30 9
ar by
Ġ4 2
Ġ5 5
Ġ21 0
Ġ21 1
Ġ21 2
Ġ21 3
Ġ21 4
Ġ21 5
Ġ21 6
Ġ21 7
Ġ21 8
Ġ21 9
Ġ23 0
Ġ23 1
Ġ23 2
Ġ23 3
Ġ23 4
Ġ23 5
Ġ23 6
Ġ23 7
Ġ23 8
Ġ23 9
Ġ26 0
Ġ26 1
Ġ26 2
Ġ26 3
Ġ26 4
Ġ26 5
Ġ26 6
Ġ26 7
Ġ26 8
Ġ26 9
Ġ29 0
Ġ29 1
Ġ29 2
Ġ29 3
Ġ29 4
Ġ29 5
Ġ29 6
Ġ29 7
Ġ29 8
Ġ29 9
Ġsh ows
Ġ19 0
Ġ19 1
Ġ19 2
Ġ19 3
Ġ19 4
Ġ19 5
Ġ19 6
Ġ19 7
Ġ19 8
Ġ19 9
Ġ31 0
Ġ31 1
Ġ31 2
Ġ31 3
Ġ31 4
Ġ31 5
Ġ31 6
Ġ31 7
Ġ31 8
Ġ31 9
Ġuse d
Ġuse ful
ĠB ell
ĠB ecause
ĠB ye
Ġrout er
Ġgo es
Ġby e
pic ious
Ġne ur
Ġne twork
Ġne arby
ĠMa ke
en ed
en ce
ver sat
Ġ6 4
Ġ9 9
Ġout pu
ĠHe y
Ġint ellig
Ġtrain ed
ai lable
ĠA cc
ĠA lexand
Ġtalk s
Ġtalk ing
Ġpa ge
Ġfe w
ap an
ĠN ice
ĠN ew
Ġ18 7
Ġ18 8
Ġ18 9
Ġpassword s
ng ry
ng lish
ĠR evise
Ġon line
Ġco mm
Ġco mplete
Ġav ailable
Ġsa d
Ġsa ve
Ġsome one
Ġmo ve
Ġmo tivat
ĠD elhi
ĠE at
ĠE dis
ĠE nglish
ĠO f
ĠO pen
ĠO verfitting
ĠW hat
ĠW hy
ĠW indows
Ġlo ss
Ġtas k
Ġcol d
Ġas king
Ġacc uracy
Ġansw er
Ġem otions
Ġspe ed
Ġslow ly
Ġfr ance
Ġfr ie
Ġfr uit
Ġho bby
Ġhum ans
Ġbreak fas
Ġdevelo ping
Ġinvent ing
Ġthan k
Ġbui lt
Ġhapp y
Ġhapp ens
Ġhapp ened
ĠRest art
ie vement
mm ing
ĠL oss
ĠL eave
Ġj oke
Ġj apan
Ġcon nect
Ġcon versat
Ġar chite
Ġar tific
Ġscre en
Ġscre ens
Ġpla ce
Ġpla ces
Ġhead ac
Ġhu a
Ġhu ngry
Ġbreath s
Ġprogra m
Ġprogra mming
Ġ32 0
ĠTh omas
ĠTh ank
Ġques tions
Ġques tion
Ġcomputer s
Ġsafe ly
Ġcolor s
Ġaccount s
plin ed
Ġll m
Ġle ft
Ġla st
Ġro le
ĠJu st
Ġtou gh
Ġtod ay
Ġtele phone
Ġwor ried
Ġwall et
Ġwonder ful
Ġcou rse
Ġcle an
Ġcor rect
Ġcla ss
Ġclea r
Ġcall ing
Ġcar ds
Ġach ievement
Ġdur ing
Ġdisci plined
Ġegg s
Ġsor ry
Ġsig n
Ġsus picious
Ġwide ly
Ġpract ical
Ġpers on
Ġposs ible
Ġpopu lar
Ġexample s
Ġfoll ow
Ġfai led
Ġfail s
Ġfav orite
Ġner vous
Ġhome work
Ġhur ts
Ġgiv es
Ġbas ics
Ġbreat he
Ġblu e
Ġbatter y
Ġsetting s
Ġretu rn
Ġtokeniz e
ĠPar is
Ġstru ctured
Ġstresse d
ĠGra ham
Ġmeasure s
ĠTalk ing
ĠToky o
Ġmahar ashtra
Ġlone ly
Ġlink s
Ġintern et
Ġindi a
Ġinspir ing
Ġwebs ite
ĠColle ct
ĠChar ge
ĠMum bai
Ġkhus h
Ġunder stand
Ġneur al
Ġoutpu ts
Ġintellig ence
ĠAcc uracy
ĠAlexand er
Ġcomm only
Ġmotivat ed
ĠEdis on
Ġfrie nds
Ġbreakfas t
Ġconnect ion
Ġconversat ion
Ġarchite cture
Ġartific ial
Ġheadac he
