{"<pad>":0,"<s>":1,"</s>":2,"<unk>":3,"!":4,"\"":5,"#":6,"$":7,"%":8,"&":9,"'":10,"(":11,")":12,"*":13,"+":14,",":15,"-":16,".":17,"/":18,"0":19,"1":20,"2":21,"3":22,"4":23,"5":24,"6":25,"7":26,"8":27,"9":28,":":29,";":30,"<":31,"=":32,">":33,"?":34,"@":35,"A":36,"B":37,"C":38,"D":39,"E":40,"F":41,"G":42,"H":43,"I":44,"J":45,"K":46,"L":47,"M":48,"N":49,"O":50,"P":51,"Q":52,"R":53,"S":54,"T":55,"U":56,"V":57,"W":58,"X":59,"Y":60,"Z":61,"[":62,"\\":63,"]":64,"^":65,"_":66,"`":67,"a":68,"b":69,"c":70,"d":71,"e":72,"f":73,"g":74,"h":75,"i":76,"j":77,"k":78,"l":79,"m":80,"n":81,"o":82,"p":83,"q":84,"r":85,"s":86,"t":87,"u":88,"v":89,"w":90,"x":91,"y":92,"z":93,"{":94,"|":95,"}":96,"~":97,"¡":98,"¢":99,"£":100,"¤":101,"¥":102,"¦":103,"§":104,"¨":105,"©":106,"ª":107,"«":108,"¬":109,"®":110,"¯":111,"°":112,"±":113,"²":114,"³":115,"´":116,"µ":117,"¶":118,"·":119,"¸":120,"¹":121,"º":122,"»":123,"¼":124,"½":125,"¾":126,"¿":127,"À":128,"Á":129,"Â":130,"Ã":131,"Ä":132,"Å":133,"Æ":134,"Ç":135,"È":136,"É":137,"Ê":138,"Ë":139,"Ì":140,"Í":141,"Î":142,"Ï":143,"Ð":144,"Ñ":145,"Ò":146,"Ó":147,"Ô":148,"Õ":149,"Ö":150,"×":151,"Ø":152,"Ù":153,"Ú":154,"Û":155,"Ü":156,"Ý":157,"Þ":158,"ß":159,"à":160,"á":161,"â":162,"ã":163,"ä":164,"å":165,"æ":166,"ç":167,"è":168,"é":169,"ê":170,"ë":171,"ì":172,"í":173,"î":174,"ï":175,"ð":176,"ñ":177,"ò":178,"ó":179,"ô":180,"õ":181,"ö":182,"÷":183,"ø":184,"ù":185,"ú":186,"û":187,"ü":188,"ý":189,"þ":190,"ÿ":191,"Ā":192,"ā":193,"Ă":194,"ă":195,"Ą":196,"ą":197,"Ć":198,"ć":199,"Ĉ":200,"ĉ":201,"Ċ":202,"ċ":203,"Č":204,"č":205,"Ď":206,"ď":207,"Đ":208,"đ":209,"Ē":210,"ē":211,"Ĕ":212,"ĕ":213,"Ė":214,"ė":215,"Ę":216,"ę":217,"Ě":218,"ě":219,"Ĝ":220,"ĝ":221,"Ğ":222,"ğ":223,"Ġ":224,"ġ":225,"Ģ":226,"ģ":227,"Ĥ":228,"ĥ":229,"Ħ":230,"ħ":231,"Ĩ":232,"ĩ":233,"Ī":234,"ī":235,"Ĭ":236,"ĭ":237,"Į":238,"į":239,"İ":240,"ı":241,"Ĳ":242,"ĳ":243,"Ĵ":244,"ĵ":245,"Ķ":246,"ķ":247,"ĸ":248,"Ĺ":249,"ĺ":250,"Ļ":251,"ļ":252,"Ľ":253,"ľ":254,"Ŀ":255,"ŀ":256,"Ł":257,"ł":258,"Ń":259,"čĊ":260,"an":261,"is":262,"se":263,"ant":264,"tant":265,"ss":266,"Ġt":267,"Use":268,"istant":269,"ssistant":270,"Assistant":271,"User":272,"Ġw":273,"he":274,"Ġc":275,"ou":276,"in":277,"at":278,"Ġy":279,"Ġyou":280,"Ġi":281,"ll":282,"od":283,"Ġa":284,"Ġan":285,"le":286,"Ġd":287,"re":288,"Ġthe":289,"Ġe":290,"Ġand":291,"me":292,"Ġis":293,"Ġ2":294,"Ġs":295,"hat":296,"ing":297,"or":298,"Ġwi":299,"Ġwhat":300,"Ġcan":301,"Ġm":302,"Ġp":303,"es":304,"Ġti":305,"ell":306,"Ġex":307,"ĠI":308,"Ġhe":309,"Ġf":310,"ic":311,"th":312,"ood":313,"Ġtime":314,"Ġn":315,"Ġit":316,"la":317,"Ġh":318,"ro":319,"Ġg":320,"ck":321,"er":322,"ct":323,"lp":324,"Ġhelp":325,"Ġb":326,"nd":327,"ĠY":328,"Ġcod":329,"ig":330,"mp":331,"ht":332,"Ġse":333,"lea":334,"ĠYes":335,"ight":336,"ow":337,"ve":338,"Ġwill":339,"Ġnight":340,"Ġdo":341,"Ġsend":342,"pla":343,"Ġexpla":344,"Ġexplain":345,"on":346,"ĠS":347,"out":348,"al":349,"ep":350,"Ġwith":351,"Ġfor":352,"ice":353,"act":354,"Ġyour":355,"Ġre":356,"ĠH":357,"Ġgood":358,"Ġ1":359,"Ġimp":360,"Ġde":361,"ke":362,"ly":363,"Ġto":364,"heck":365,"Ġcheck":366,"Ġpro":367,"Ġwell":368,"ĠP":369,"Ġst":370,"as":371,"lo":372,"ĠG":373,"Ġcoding":374,"bout":375,"Ġme":376,"Ġabout":377,"ĠGood":378,"Ġ3":379,"ch":380,"rn":381,"leep":382,"dy":383,"ĠT":384,"Ġlea":385,"ath":386,"Ġlearn":387,"ble":388,"vice":389,"ello":390,"Ġhi":391,"Ġhow":392,"lease":393,"ĠHello":394,"Ġdevice":395,"ĠPlease":396,"lock":397,"ay":398,"Ġclock":399,"Ġthere":400,"Ġmath":401,"Ġexact":402,"Ġbe":403,"Ġcode":404,"ĠSleep":405,"Ġimpro":406,"Ġwhe":407,"Ġma":408,"Ġproble":409,"Ġwhen":410,"Ġproblem":411,"ra":412,"Ġ=":413,"Ġl":414,"ge":415,"Ġeas":416,"Ġeasi":417,"ed":418,"ter":419,"udy":420,"Ġam":421,"Ġin":422,"ine":423,"te":424,"ti":425,"Ġo":426,"Ġth":427,"Ġwe":428,"mple":429,"Ġeasier":430,"am":431,"ive":432,"Ġwh":433,"one":434,"Ġlearning":435,"imple":436,"ract":437,"ĠC":438,"ĠM":439,"Ġtell":440,"Ġsimple":441,"ce":442,"gu":443,"ol":444,"ome":445,"Ġat":446,"ata":447,"Ġdata":448,"chine":449,"ractice":450,"all":451,"el":452,"oll":453,"ore":454,"ul":455,"Ġk":456,"ork":457,"alth":458,"Ġstudy":459,"Ġimprov":460,"Ġmake":461,"ily":462,"now":463,"yth":464,"Ġu":465,"ance":466,"Ġtra":467,"her":468,"ink":469,"Ġdi":470,"Ġday":471,"Ġ20":472,"Ġ25":473,"Ġpractice":474,"lar":475,"Ġimprove":476,"Ġli":477,"olle":478,"Ġknow":479,"it":480,"ot":481,"ool":482,"st":483,"Ġwork":484,"ather":485,"Ġare":486,"ortant":487,"vel":488,"Ġregu":489,"Ġimportant":490,"chool":491,"Ġof":492,"Ġweather":493,"amily":494,"Ġimproves":495,"ollege":496,"Ġregular":497,"ak":498,"mall":499,"Ġone":500,"Ġchat":501,"Ġ22":502,"Ġ24":503,"Ġ27":504,"Ġ28":505,"Ġsmall":506,"Ġmy":507,"ons":508,"ĠSt":509,"Ġ30":510,"Ġwhy":511,"ar":512,"come":513,"ect":514,"pp":515,"tter":516,"us":517,"Ġ4":518,"Ġ5":519,"Ġif":520,"Ġanyth":521,"red":522,"Ġ21":523,"Ġ23":524,"Ġ26":525,"Ġ29":526,"Ġsh":527,"Ġpl":528,"Ġtip":529,"Ġtimes":530,"Ġgive":531,"Ġ19":532,"Ġ31":533,"Ġbetter":534,"tern":535,"Ġthink":536,"Ġuse":537,"Ġanything":538,"id":539,"ject":540,"qu":541,"rout":542,"Ġ7":543,"ĠB":544,"Ġqu":545,"Ġrout":546,"Ġch":547,"reak":548,"Ġeat":549,"Ġso":550,"ort":551,"Ġgo":552,"Ġby":553,"Ġproject":554,"Ġstep":555,"fe":556,"ld":557,"pic":558,"ry":559,"Ġke":560,"odel":561,"Ġmodel":562,"Ġhealth":563,"Ġne":564,"Ġ10":565,"Ġstay":566,"Ġmachine":567,"ten":568,"tions":569,"ĠMa":570,"ult":571,"Ġoften":572,"ĠStudy":573,"Ġprojects":574,"Ġkeep":575,"ady":576,"en":577,"fic":578,"fore":579,"kly":580,"sse":581,"vis":582,"ver":583,"Ġ6":584,"Ġ9":585,"Ġout":586,"ange":587,"ish":588,"attern":589,"Ġact":590,"Ġmore":591,"Ġpattern":592,"est":593,"ickly":594,"alk":595,"Ġrest":596,"Ġready":597,"ĠHe":598,"Ġtopic":599,"Ġbecome":600,"Ġbefore":601,"Ġint":602,"Ġtrain":603,"Ġlike":604,"Ġquickly":605,"Ġchange":606,"ĠMachine":607,"vise":608,"Ġactive":609,"Ġpatterns":610,"Family":611,"ai":612,"bu":613,"ffic":614,"nt":615,"nti":616,"um":617,"upp":618,"vid":619,"Ġ8":620,"ĠA":621,"ĠFamily":622,"Ġtalk":623,"Ġcollege":624,"ould":625,"inish":626,"oding":627,"reat":628,"Ġesse":629,"Ġschool":630,"Ġsupp":631,"Ġpa":632,"Ġpred":633,"Ġfe":634,"Ġfamily":635,"Ġfinish":636,"ictions":637,"Ġbu":638,"Ġbal":639,"ndance":640,"ĠSchool":641,"als":642,"Ġrevise":643,"Ġ12":644,"Ġdebu":645,"ĠThe":646,"ĠTra":647,"Ġeasily":648,"tendance":649,"ĠCollege":650,"ĠCoding":651,"Ġattendance":652,"Ġtravel":653,"Ġdiffic":654,"Ġdivid":655,"Ġdays":656,"Ġlife":657,"Ġregularly":658,"Ġshould":659,"Ġplan":660,"Ġuses":661,"ĠBreak":662,"Ġroute":663,"Ġgoing":664,"Ġsteps":665,"ĠHealth":666,"Ġbecomes":667,"Ġinto":668,"ntials":669,"Ġessentials":670,"Ġsupport":671,"Ġpredictions":672,"Ġbalance":673,"Ġdebug":674,"ĠTravel":675,"Ġdifficult":676,"Ġdivided":677,"ap":678,"ake":679,"bot":680,"et":681,"ks":682,"pe":683,"wor":684,"ĠN":685,"sswor":686,"Ġha":687,"Ġgreat":688,"Ġ18":689,"ĠThat":690,"Ġwho":691,"Ġchatbot":692,"Ġpasswor":693,"Ġfeel":694,"Ġpassword":695,"by":696,"cc":697,"for":698,"hone":699,"ng":700,"ning":701,"ting":702,"ure":703,"ĠR":704,"Ġon":705,"ans":706,"Ġco":707,"Ġcap":708,"ater":709,"Ġav":710,"Ġsa":711,"Ġsome":712,"Ġmo":713,"Ġnot":714,"Ġdoing":715,"ĠHow":716,"ĠTake":717,"ital":718,"art":719,"Ġplus":720,"very":721,"Ġcapital":722,"are":723,"ame":724,"age":725,"bo":726,"de":727,"gam":728,"ite":729,"ions":730,"low":731,"lcome":732,"oid":733,"ogam":734,"ping":735,"sw":736,"ur":737,"ĠD":738,"ĠE":739,"ĠO":740,"ĠW":741,"ĠUse":742,"Ġor":743,"Ġlo":744,"angu":745,"set":746,"Ġtas":747,"Ġtest":748,"Ġwant":749,"Ġcol":750,"Ġas":751,"Ġacc":752,"Ġansw":753,"Ġem":754,"Ġevery":755,"Ġsleep":756,"Ġspe":757,"Ġslow":758,"Ġphone":759,"Ġfr":760,"thing":761,"Ġname":762,"Ġho":763,"Ġhum":764,"ers":765,"Ġbreak":766,"ĠYou":767,"velo":768,"vent":769,"Ġ14":770,"Ġ15":771,"Ġdevelo":772,"ĠTry":773,"Ġlangu":774,"eded":775,"Ġinvent":776,"Ġthan":777,"Ġthing":778,"Ġwelcome":779,"ĠMogam":780,"ython":781,"ited":782,"Ġshort":783,"Ġneeded":784,"ail":785,"Ġbui":786,"Ġbut":787,"ĠNo":788,"Ġhapp":789,"ĠRest":790,"Ġavoid":791,"Ġsomething":792,"Ġlanguage":793,"ĠMogambo":794,"10":795,"11":796,"15":797,"30":798,"ad":799,"au":800,"cy":801,"cre":802,"cus":803,"cau":804,"ee":805,"ful":806,"fit":807,"ftern":808,"gr":809,"gra":810,"har":811,"ie":812,"ies":813,"ion":814,"mm":815,"ner":816,"oo":817,"oss":818,"oon":819,"ocus":820,"pu":821,"per":822,"pen":823,"pare":824,"rs":825,"rink":826,"rans":827,"sult":828,"ts":829,"ura":830,"uter":831,"vies":832,"work":833,"yping":834,"ĠL":835,"Ġj":836,"Ġow":837,"and":838,"Ġtry":839,"Ġtrans":840,"Ġtyping":841,"Ġwas":842,"Ġway":843,"Ġwater":844,"Ġcon":845,"Ġcal":846,"Ġcred":847,"ous":848,"ount":849,"ate":850,"atul":851,"ations":852,"Ġai":853,"Ġar":854,"Ġaftern":855,"Ġdrink":856,"reath":857,"repare":858,"Ġthem":859,"Ġeve":860,"mer":861,"Ġscre":862,"orning":863,"Ġmus":864,"Ġmorning":865,"Ġpla":866,"Ġhere":867,"Ġhead":868,"Ġfro":869,"Ġfocus":870,"Ġnow":871,"Ġhu":872,"rong":873,"Ġbul":874,"Ġbreath":875,"nder":876,"mputer":877,"Ġsee":878,"ows":879,"ongr":880,"ĠSum":881,"ĠSee":882,"ali":883,"Ġreal":884,"Ġreset":885,"Ġresult":886,"Ġ11":887,"Ġtoo":888,"Ġprogra":889,"ĠPractice":890,"ĠPython":891,"ĠPrepare":892,"Ġ32":893,"ĠTh":894,"Ġmade":895,"Ġlight":896,"Ġlater":897,"Ġlate":898,"tion":899,"Ġthis":900,"ĠCongr":901,"ĠMy":902,"ĠMali":903,"Ġimproving":904,"Ġup":905,"ĠStart":906,"Ġusers":907,"Ġques":908,"Ġroutine":909,"Ġchoo":910,"Ġsoon":911,"Ġgoal":912,"Ġhealthy":913,"Ġnew":914,"Ġ100":915,"ens":916,"verfit":917,"Ġtraining":918,"ĠAI":919,"Ġhave":920,"Ġfeeling":921,"bye":922,"form":923,"former":924,"Ġcomputer":925,"Ġsafe":926,"Ġmovies":927,"ĠDo":928,"Ġlost":929,"Ġtasks":930,"Ġcolor":931,"Ġaccount":932,"Ġanswers":933,"Ġemail":934,"Ġspeak":935,"Ġnamed":936,"Ġhope":937,"Ġhuman":938,"Ġdeveloper":939,"Ġinvented":940,"Ġthanks":941,"Ġthings":942,"Ġbuild":943,"cause":944,"uracy":945,"Ġowner":946,"Ġtransformer":947,"Ġcalm":948,"Ġcredited":949,"atulations":950,"Ġafternoon":951,"Ġevening":952,"Ġmusic":953,"Ġfrom":954,"Ġbulb":955,"ĠSumit":956,"Ġresults":957,"ĠCongratulations":958,"Ġchoose":959,"verfitting":960,"Ju":961,"ac":962,"av":963,"ain":964,"ave":965,"ample":966,"aily":967,"bs":968,"ber":969,"bai":970,"bby":971,"ci":972,"ces":973,"call":974,"cure":975,"cited":976,"di":977,"ds":978,"dis":979,"dows":980,"ew":981,"ele":982,"evise":983,"ecause":984,"eave":985,"ft":986,"fas":987,"gg":988,"gh":989,"got":990,"gry":991,"gain":992,"hi":993,"hy":994,"ham":995,"hus":996,"ir":997,"iv":998,"iz":999,"ile":1000,"ial":1001,"ible":1002,"ied":1003,"ious":1004,"ky":1005,"king":1006,"kay":1007,"lf":1008,"lt":1009,"lu":1010,"lin":1011,"line":1012,"lish":1013,"mat":1014,"mas":1015,"mber":1016,"not":1017,"nect":1018,"nform":1019,"niz":1020,"oke":1021,"otions":1022,"opu":1023,"onder":1024,"oky":1025,"omas":1026,"phone":1027,"ption":1028,"pir":1029,"plin":1030,"ru":1031,"rse":1032,"right":1033,"rks":1034,"ried":1035,"sat":1036,"spir":1037,"tu":1038,"tes":1039,"ther":1040,"tting":1041,"twork":1042,"un":1043,"uch":1044,"uit":1045,"ured":1046,"utes":1047,"vat":1048,"vous":1049,"way":1050,"xand":1051,"ye":1052,"Ġll":1053,"Ġle":1054,"Ġla":1055,"Ġro":1056,"Ġvery":1057,"ĠJu":1058,"ank":1059,"any":1060,"isci":1061,"self":1062,"ssions":1063,"Ġtou":1064,"Ġtod":1065,"Ġthat":1066,"Ġtake":1067,"Ġtele":1068,"Ġwor":1069,"Ġwall":1070,"Ġwrong":1071,"Ġwonder":1072,"Ġcou":1073,"Ġcle":1074,"Ġcor":1075,"Ġcla":1076,"Ġclea":1077,"Ġcall":1078,"Ġcar":1079,"Ġcare":1080,"indows":1081,"inutes":1082,"ats":1083,"atter":1084,"Ġyes":1085,"llo":1086,"Ġassistant":1087,"Ġach":1088,"Ġapp":1089,"Ġagain":1090,"Ġaway":1091,"Ġangry":1092,"led":1093,"lexand":1094,"Ġdur":1095,"Ġdaily":1096,"Ġdisci":1097,"rect":1098,"resse":1099,"Ġegg":1100,"ment":1101,"member":1102,"Ġsor":1103,"Ġsig":1104,"Ġsus":1105,"orite":1106,"Ġwide":1107,"Ġcannot":1108,"Ġmood":1109,"Ġmuch":1110,"Ġmany":1111,"Ġminutes":1112,"Ġpract":1113,"Ġpers":1114,"Ġpython":1115,"Ġposs":1116,"Ġpopu":1117,"Ġtired":1118,"ellig":1119,"Ġexam":1120,"Ġexample":1121,"Ġexcited":1122,"ĠInform":1123,"Ġhey":1124,"Ġhear":1125,"Ġhello":1126,"Ġfine":1127,"Ġfoll":1128,"Ġfai":1129,"Ġfail":1130,"Ġfav":1131,"Ġfun":1132,"ics":1133,"ical":1134,"Ġner":1135,"Ġnice":1136,"Ġits":1137,"lack":1138,"lable":1139,"Ġhome":1140,"Ġhur":1141,"Ġgot":1142,"Ġget":1143,"Ġgiv":1144,"ctor":1145,"cture":1146,"ctured":1147,"Ġhelps":1148,"Ġhelping":1149,"Ġbas":1150,"Ġblock":1151,"Ġbest":1152,"Ġbreat":1153,"Ġblu":1154,"Ġbright":1155,"Ġbatter":1156,"Ġblack":1157,"nds":1158,"htra":1159,"Ġsecure":1160,"Ġsetting":1161,"Ġsessions":1162,"vement":1163,"Ġdoctor":1164,"only":1165,"ĠSet":1166,"ĠSure":1167,"Ġforgot":1168,"Ġformat":1169,"Ġyourself":1170,"Ġrecall":1171,"Ġretu":1172,"Ġremember":1173,"ĠHi":1174,"Ġgoodbye":1175,"Ġdeep":1176,"keniz":1177,"Ġtokeniz":1178,"ĠPar":1179,"Ġstart":1180,"Ġstrong":1181,"Ġstru":1182,"Ġstresse":1183,"asure":1184,"ashtra":1185,"ĠGra":1186,"Ġmeet":1187,"Ġmeans":1188,"Ġmeasure":1189,"ĠGoodbye":1190,"Ġ36":1191,"chite":1192,"ĠTell":1193,"ĠTalk":1194,"ĠToky":1195,"Ġlearns":1196,"Ġbed":1197,"Ġbecause":1198,"Ġmahar":1199,"Ġmarks":1200,"Ġlow":1201,"Ġlone":1202,"Ġlink":1203,"Ġintern":1204,"Ġinform":1205,"Ġindi":1206,"Ġinspir":1207,"tific":1208,"tivat":1209,"Ġopen":1210,"Ġoverfitting":1211,"Ġokay":1212,"Ġoption":1213,"Ġother":1214,"Ġoats":1215,"Ġwebs":1216,"mplete":1217,"Ġwhile":1218,"ĠColle":1219,"ĠChar":1220,"ĠMum":1221,"Ġdataset":1222,"elhi":1223,"Ġkhus":1224,"Ġstudying":1225,"Ġunder":1226,"Ġdid":1227,"Ġ200":1228,"Ġ201":1229,"Ġ202":1230,"Ġ203":1231,"Ġ204":1232,"Ġ205":1233,"Ġ206":1234,"Ġ207":1235,"Ġ208":1236,"Ġ209":1237,"Ġ250":1238,"Ġ251":1239,"Ġ252":1240,"Ġ253":1241,"Ġ254":1242,"Ġ255":1243,"Ġ256":1244,"Ġ257":1245,"Ġ258":1246,"Ġ259":1247,"stand":1248,"Ġchatting":1249,"Ġ220":1250,"Ġ221":1251,"Ġ222":1252,"Ġ223":1253,"Ġ224":1254,"Ġ225":1255,"Ġ226":1256,"Ġ227":1257,"Ġ228":1258,"Ġ229":1259,"Ġ240":1260,"Ġ241":1261,"Ġ242":1262,"Ġ243":1263,"Ġ244":1264,"Ġ245":1265,"Ġ246":1266,"Ġ247":1267,"Ġ248":1268,"Ġ249":1269,"Ġ270":1270,"Ġ271":1271,"Ġ272":1272,"Ġ273":1273,"Ġ274":1274,"Ġ275":1275,"Ġ276":1276,"Ġ277":1277,"Ġ278":1278,"Ġ279":1279,"Ġ280":1280,"Ġ281":1281,"Ġ282":1282,"Ġ283":1283,"Ġ284":1284,"Ġ285":1285,"Ġ286":1286,"Ġ287":1287,"Ġ288":1288,"Ġ289":1289,"ĠStay":1290,"Ġ300":1291,"Ġ301":1292,"Ġ302":1293,"Ġ303":1294,"Ġ304":1295,"Ġ305":1296,"Ġ306":1297,"Ġ307":1298,"Ġ308":1299,"Ġ309":1300,"arby":1301,"Ġ42":1302,"Ġ55":1303,"Ġ210":1304,"Ġ211":1305,"Ġ212":1306,"Ġ213":1307,"Ġ214":1308,"Ġ215":1309,"Ġ216":1310,"Ġ217":1311,"Ġ218":1312,"Ġ219":1313,"Ġ230":1314,"Ġ231":1315,"Ġ232":1316,"Ġ233":1317,"Ġ234":1318,"Ġ235":1319,"Ġ236":1320,"Ġ237":1321,"Ġ238":1322,"Ġ239":1323,"Ġ260":1324,"Ġ261":1325,"Ġ262":1326,"Ġ263":1327,"Ġ264":1328,"Ġ265":1329,"Ġ266":1330,"Ġ267":1331,"Ġ268":1332,"Ġ269":1333,"Ġ290":1334,"Ġ291":1335,"Ġ292":1336,"Ġ293":1337,"Ġ294":1338,"Ġ295":1339,"Ġ296":1340,"Ġ297":1341,"Ġ298":1342,"Ġ299":1343,"Ġshows":1344,"Ġ190":1345,"Ġ191":1346,"Ġ192":1347,"Ġ193":1348,"Ġ194":1349,"Ġ195":1350,"Ġ196":1351,"Ġ197":1352,"Ġ198":1353,"Ġ199":1354,"Ġ310":1355,"Ġ311":1356,"Ġ312":1357,"Ġ313":1358,"Ġ314":1359,"Ġ315":1360,"Ġ316":1361,"Ġ317":1362,"Ġ318":1363,"Ġ319":1364,"Ġused":1365,"Ġuseful":1366,"ĠBell":1367,"ĠBecause":1368,"ĠBye":1369,"Ġrouter":1370,"Ġgoes":1371,"Ġbye":1372,"picious":1373,"Ġneur":1374,"Ġnetwork":1375,"Ġnearby":1376,"ĠMake":1377,"ened":1378,"ence":1379,"versat":1380,"Ġ64":1381,"Ġ99":1382,"Ġoutpu":1383,"ĠHey":1384,"Ġintellig":1385,"Ġtrained":1386,"ailable":1387,"ĠAcc":1388,"ĠAlexand":1389,"Ġtalks":1390,"Ġtalking":1391,"Ġpage":1392,"Ġfew":1393,"apan":1394,"ĠNice":1395,"ĠNew":1396,"Ġ187":1397,"Ġ188":1398,"Ġ189":1399,"Ġpasswords":1400,"ngry":1401,"nglish":1402,"ĠRevise":1403,"Ġonline":1404,"Ġcomm":1405,"Ġcomplete":1406,"Ġavailable":1407,"Ġsad":1408,"Ġsave":1409,"Ġsomeone":1410,"Ġmove":1411,"Ġmotivat":1412,"ĠDelhi":1413,"ĠEat":1414,"ĠEdis":1415,"ĠEnglish":1416,"ĠOf":1417,"ĠOpen":1418,"ĠOverfitting":1419,"ĠWhat":1420,"ĠWhy":1421,"ĠWindows":1422,"Ġloss":1423,"Ġtask":1424,"Ġcold":1425,"Ġasking":1426,"Ġaccuracy":1427,"Ġanswer":1428,"Ġemotions":1429,"Ġspeed":1430,"Ġslowly":1431,"Ġfrance":1432,"Ġfrie":1433,"Ġfruit":1434,"Ġhobby":1435,"Ġhumans":1436,"Ġbreakfas":1437,"Ġdeveloping":1438,"Ġinventing":1439,"Ġthank":1440,"Ġbuilt":1441,"Ġhappy":1442,"Ġhappens":1443,"Ġhappened":1444,"ĠRestart":1445,"ievement":1446,"mming":1447,"ĠLoss":1448,"ĠLeave":1449,"Ġjoke":1450,"Ġjapan":1451,"Ġconnect":1452,"Ġconversat":1453,"Ġarchite":1454,"Ġartific":1455,"Ġscreen":1456,"Ġscreens":1457,"Ġplace":1458,"Ġplaces":1459,"Ġheadac":1460,"Ġhua":1461,"Ġhungry":1462,"Ġbreaths":1463,"Ġprogram":1464,"Ġprogramming":1465,"Ġ320":1466,"ĠThomas":1467,"ĠThank":1468,"Ġquestions":1469,"Ġquestion":1470,"Ġcomputers":1471,"Ġsafely":1472,"Ġcolors":1473,"Ġaccounts":1474,"plined":1475,"Ġllm":1476,"Ġleft":1477,"Ġlast":1478,"Ġrole":1479,"ĠJust":1480,"Ġtough":1481,"Ġtoday":1482,"Ġtelephone":1483,"Ġworried":1484,"Ġwallet":1485,"Ġwonderful":1486,"Ġcourse":1487,"Ġclean":1488,"Ġcorrect":1489,"Ġclass":1490,"Ġclear":1491,"Ġcalling":1492,"Ġcards":1493,"Ġachievement":1494,"Ġduring":1495,"Ġdisciplined":1496,"Ġeggs":1497,"Ġsorry":1498,"Ġsign":1499,"Ġsuspicious":1500,"Ġwidely":1501,"Ġpractical":1502,"Ġperson":1503,"Ġpossible":1504,"Ġpopular":1505,"Ġexamples":1506,"Ġfollow":1507,"Ġfailed":1508,"Ġfails":1509,"Ġfavorite":1510,"Ġnervous":1511,"Ġhomework":1512,"Ġhurts":1513,"Ġgives":1514,"Ġbasics":1515,"Ġbreathe":1516,"Ġblue":1517,"Ġbattery":1518,"Ġsettings":1519,"Ġreturn":1520,"Ġtokenize":1521,"ĠParis":1522,"Ġstructured":1523,"Ġstressed":1524,"ĠGraham":1525,"Ġmeasures":1526,"ĠTalking":1527,"ĠTokyo":1528,"Ġmaharashtra":1529,"Ġlonely":1530,"Ġlinks":1531,"Ġinternet":1532,"Ġindia":1533,"Ġinspiring":1534,"Ġwebsite":1535,"ĠCollect":1536,"ĠCharge":1537,"ĠMumbai":1538,"Ġkhush":1539,"Ġunderstand":1540,"Ġneural":1541,"Ġoutputs":1542,"Ġintelligence":1543,"ĠAccuracy":1544,"ĠAlexander":1545,"Ġcommonly":1546,"Ġmotivated":1547,"ĠEdison":1548,"Ġfriends":1549,"Ġbreakfast":1550,"Ġconnection":1551,"Ġconversation":1552,"Ġarchitecture":1553,"Ġartificial":1554,"Ġheadache":1555}